TRT-8401-MinMaxCalibration
input: 3c010204
onnx::Reshape_307: 3c010204
input.1: 3c010204
onnx::Sigmoid_317: 3ee55b09
onnx::Mul_318: 3c010204
input.3: 3ee55b09
onnx::Sigmoid_320: 3ee9aaa7
onnx::Mul_321: 3c010204
input.7: 3ebc7665
onnx::Sigmoid_323: 3eac7337
onnx::Mul_324: 3c010204
input.11: 3e1513d2
onnx::Sigmoid_326: 3e65be46
onnx::Mul_327: 3c0101fc
input.15: 3dde5dcc
onnx::Sigmoid_329: 3e0e53b2
onnx::Mul_330: 3c010204
onnx::Add_331: 3e0e53b2
input.19: 3e1e80cc
onnx::Sigmoid_333: 3e2a2d9c
onnx::Mul_334: 3c010202
input.23: 3df92fbb
onnx::Sigmoid_336: 3e2870bc
onnx::Mul_337: 3c0101f9
onnx::Add_338: 3dda940a
input.27: 3e4721f7
onnx::Sigmoid_340: 3de63a0b
onnx::Mul_341: 3c0101c2
input.31: 3dbd8a48
onnx::Sigmoid_343: 3e0af7c6
onnx::Mul_344: 3c010204
onnx::Add_345: 3e0af7c6
onnx::Concat_346: 3e901c1a
onnx::Sigmoid_347: 3ee59d28
onnx::Mul_348: 3c010204
onnx::Concat_349: 3e9bbdc6
input.35: 3e9bbdc6
onnx::Sigmoid_351: 3e1fed6f
onnx::Mul_352: 3c0101eb
input.39: 3dccd311
onnx::Sigmoid_354: 3db5339e
onnx::Mul_355: 3c010194
input.43: 3db53301
onnx::Sigmoid_357: 3da9a80c
onnx::Mul_358: 3c00fcd3
input.47: 3d8d1784
onnx::Sigmoid_360: 3da5ee1c
onnx::Mul_361: 3c0100e3
input.51: 3da5eca8
onnx::Sigmoid_363: 3d89739e
onnx::Mul_364: 3c00ebe1
onnx::Add_365: 3d6b83fc
input.55: 3d8a8fab
onnx::Sigmoid_367: 3dc09148
onnx::Mul_368: 3c0101cd
input.59: 3dc090f5
onnx::Sigmoid_370: 3d7a0b0f
onnx::Mul_371: 3c00d2b2
onnx::Add_372: 3d52d7fc
input.63: 3d95c60c
onnx::Sigmoid_374: 3da361b3
onnx::Mul_375: 3c0100b2
input.67: 3da36008
onnx::Sigmoid_377: 3d9732cd
onnx::Mul_378: 3c00ee74
onnx::Add_379: 3d6f8346
input.71: 3d9155e2
onnx::Sigmoid_381: 3d949ef5
onnx::Mul_382: 3c00fc07
input.75: 3d8ad2f8
onnx::Sigmoid_384: 3d8d0c16
onnx::Mul_385: 3c00fc6b
onnx::Add_386: 3d8be428
input.79: 3dd15bba
onnx::Sigmoid_388: 3dad60df
onnx::Mul_389: 3c00f52f
input.83: 3d7d2b74
onnx::Sigmoid_391: 3dada1f6
onnx::Mul_392: 3c010154
onnx::Add_393: 3dada108
input.87: 3dd38c3b
onnx::Sigmoid_395: 3d923df9
onnx::Mul_396: 3c00fe35
input.91: 3d9239a8
onnx::Sigmoid_398: 3da6f19e
onnx::Mul_399: 3c0100f5
onnx::Add_400: 3da6f03f
input.95: 3e00110c
onnx::Sigmoid_402: 3db07597
onnx::Mul_403: 3c01007a
input.99: 3da0eabb
onnx::Sigmoid_405: 3ddcd533
onnx::Mul_406: 3c0101ba
onnx::Add_407: 3dbbbe76
input.103: 3e14037d
onnx::Sigmoid_409: 3d85edec
onnx::Mul_410: 3c00f29d
input.107: 3d7742a6
onnx::Sigmoid_412: 3dbafb00
onnx::Mul_413: 3c0101b6
onnx::Add_414: 3dbafa8f
input.111: 3e11f9a1
onnx::Sigmoid_416: 3d8ecaf0
onnx::Mul_417: 3c00fb44
input.115: 3d88f3c8
onnx::Sigmoid_419: 3df9040c
onnx::Mul_420: 3c010202
onnx::Add_421: 3df90408
onnx::Concat_422: 3e22da39
onnx::Sigmoid_423: 3e6d89aa
onnx::Mul_424: 3c010204
onnx::Concat_425: 3e6d89aa
input.119: 3e6d89aa
onnx::Sigmoid_427: 3dc272b3
onnx::Mul_428: 3c0101d3
input.123: 3dc2726a
onnx::Sigmoid_430: 3e00e9f3
onnx::Mul_431: 3c010203
input.127: 3e00e9f2
onnx::Sigmoid_433: 3db6bcbf
onnx::Mul_434: 3c01019e
input.131: 3db6bc2f
onnx::Sigmoid_436: 3e08e38d
onnx::Mul_437: 3c010204
input.135: 3e08e38d
onnx::Sigmoid_439: 3d95a13f
onnx::Mul_440: 3bffd071
onnx::Add_441: 3d180ed3
input.139: 3db30a58
onnx::Sigmoid_443: 3e0f7bd8
onnx::Mul_444: 3c010204
input.143: 3e0f7bd8
onnx::Sigmoid_446: 3d93ed05
onnx::Mul_447: 3c00bdc7
onnx::Add_448: 3d46e691
input.147: 3daf51a0
onnx::Sigmoid_450: 3dd346de
onnx::Mul_451: 3c0101f3
input.151: 3dd346c2
onnx::Sigmoid_453: 3d66767f
onnx::Mul_454: 3c00e801
onnx::Add_455: 3d664807
input.155: 3dab2f5c
onnx::Sigmoid_457: 3db733ce
onnx::Mul_458: 3c0101a1
input.159: 3db73342
onnx::Sigmoid_460: 3d599419
onnx::Mul_461: 3c00d03d
onnx::Add_462: 3d5131c9
input.163: 3de6ae81
onnx::Sigmoid_464: 3dd1797c
onnx::Mul_465: 3c0101f1
input.167: 3dd1795d
onnx::Sigmoid_467: 3da405da
onnx::Mul_468: 3c0100bf
onnx::Add_469: 3da4043c
input.171: 3de271d3
onnx::Sigmoid_471: 3d9fc360
onnx::Mul_472: 3c010060
input.175: 3d9fc158
onnx::Sigmoid_474: 3d91f73e
onnx::Mul_475: 3c00fc77
onnx::Add_476: 3d8c056f
input.179: 3de5b70e
onnx::Sigmoid_478: 3d8df017
onnx::Mul_479: 3c00f216
input.183: 3d762ab6
onnx::Sigmoid_481: 3dbae4fd
onnx::Mul_482: 3c0101b6
onnx::Add_483: 3dbae48c
input.187: 3dfd176d
onnx::Sigmoid_485: 3d820886
onnx::Mul_486: 3c00f380
input.191: 3d792d3f
onnx::Sigmoid_488: 3dfa4fca
onnx::Mul_489: 3c010203
onnx::Add_490: 3dfa4fc7
input.195: 3e22a3f1
onnx::Sigmoid_492: 3da35ed0
onnx::Mul_493: 3c0100b2
input.199: 3da35d23
onnx::Sigmoid_495: 3e3c5335
onnx::Mul_496: 3c010204
onnx::Add_497: 3e3c5335
onnx::Concat_498: 3e4e7abe
onnx::Sigmoid_499: 3e397c5d
onnx::Mul_500: 3c010204
onnx::Concat_501: 3e397c5d
input.203: 3e4e7abe
onnx::Sigmoid_503: 3dd503fa
onnx::Mul_504: 3c0101f5
input.207: 3dd503e1
onnx::Sigmoid_506: 3dcbce7b
onnx::Mul_507: 3c0101e9
input.211: 3dcbce50
onnx::Sigmoid_509: 3d96faa9
onnx::Mul_510: 3c00ff2c
input.215: 3d96f756
onnx::Sigmoid_512: 3e0d5add
onnx::Mul_513: 3c010204
input.219: 3e0d5add
onnx::Sigmoid_515: 3dee2fd5
onnx::Mul_516: 3c00e5b6
onnx::Add_517: 3d638b49
input.223: 3d93d7ff
onnx::Sigmoid_519: 3daa4be6
onnx::Mul_520: 3c0100e6
input.227: 3da611e8
onnx::Sigmoid_522: 3e058efe
onnx::Mul_523: 3c00f7ca
onnx::Add_524: 3d824396
input.231: 3d9e5037
onnx::Sigmoid_526: 3dbc883f
onnx::Mul_527: 3c0101bd
input.235: 3dbc87d9
onnx::Sigmoid_529: 3dc1f599
onnx::Mul_530: 3c010147
onnx::Add_531: 3dac90a8
onnx::Concat_532: 3dda9fa8
onnx::Sigmoid_533: 3da1c063
onnx::Mul_534: 3c010090
onnx::Concat_535: 3da1be90
input.239: 3dda9fa8
onnx::Sigmoid_537: 3da07297
onnx::Mul_538: 3c010070
input.243: 3da070a0
onnx::Sigmoid_540: 3db49186
onnx::Mul_541: 3c01018f
input.247: 3db490e3
onnx::Sigmoid_543: 3d8b52c5
onnx::Mul_544: 3c00fc34
onnx::MaxPool_545: 3d8b4c7e
onnx::Concat_546: 3d8b4c7e
onnx::MaxPool_547: 3d8b4c7e
onnx::Concat_548: 3d8b4c7e
onnx::MaxPool_549: 3d8b4c7e
onnx::MaxPool_550: 3d8b4c7e
onnx::Concat_551: 3d8b4c7e
input.251: 3d8b4c7e
onnx::Sigmoid_553: 3d8021ab
onnx::Mul_554: 3c008587
input.255: 3d3331fa
onnx::Sigmoid_556: 3d4bbaef
onnx::Mul_557: 3c00c67c
input.259: 3d4b5cec
onnx::Sigmoid_559: 3d2dc4dc
onnx::Mul_560: 3c006bb8
input.263: 3d2cfa6b
onnx::Sigmoid_562: 3d5a5174
onnx::Mul_563: 3c00dc1f
input.267: 3d5a1154
onnx::Sigmoid_565: 3d4fbf1c
onnx::Mul_566: 3c00cd74
input.271: 3d4f6a77
onnx::Sigmoid_568: 3d840fa1
onnx::Mul_569: 3c00f8d1
input.275: 3d840636
onnx::Sigmoid_571: 3d517914
onnx::Mul_572: 3c00d02e
input.279: 3d512829
onnx::Sigmoid_574: 3d556b2f
onnx::Mul_575: 3c00d5ea
onnx::Concat_576: 3d552239
onnx::Sigmoid_577: 3d3feb6f
onnx::Mul_578: 3c00aaa3
onnx::Concat_579: 3d3ed083
input.283: 3d552239
onnx::Sigmoid_581: 3d781120
onnx::Mul_582: 3c00f2f1
input.287: 3d77f423
onnx::Sigmoid_584: 3d6b4c5d
onnx::Mul_585: 3c00a479
input.291: 3d3c9566
onnx::Concat_591: 3d3c9566
input.295: 3da070a0
onnx::Sigmoid_593: 3d85ef38
onnx::Mul_594: 3c00f75e
input.299: 3d81951f
onnx::Sigmoid_596: 3d9c40a5
onnx::Mul_597: 3c00fbdd
input.303: 3d8a6811
onnx::Sigmoid_599: 3d744c6b
onnx::Mul_600: 3c00f112
input.307: 3d742c55
onnx::Sigmoid_602: 3d8481e7
onnx::Mul_603: 3c00f5a6
input.311: 3d7e5dfd
onnx::Sigmoid_605: 3d96d3fd
onnx::Mul_606: 3c00fe9e
input.315: 3d941a7f
onnx::Sigmoid_608: 3dadea7c
onnx::Mul_609: 3c010157
input.319: 3dade992
onnx::Sigmoid_611: 3d97ffb6
onnx::Mul_612: 3c00ff5a
onnx::Concat_613: 3d97fc92
onnx::Sigmoid_614: 3d83f10e
onnx::Mul_615: 3c00e87c
onnx::Concat_616: 3d66e2d8
input.323: 3d97fc92
onnx::Sigmoid_618: 3d96d6ca
onnx::Mul_619: 3c00fb98
input.327: 3d89bc1a
onnx::Sigmoid_621: 3d69ecd1
onnx::Mul_622: 3c004a08
input.331: 3d2647a7
onnx::Concat_628: 3d2647a7
input.335: 3dd503e1
onnx::Sigmoid_630: 3d865912
onnx::Mul_631: 3c00ebff
input.339: 3d6baf6f
onnx::Sigmoid_633: 3dbd205a
onnx::Mul_634: 3c0101c1
input.343: 3dbd1ff7
onnx::Sigmoid_636: 3d7658ab
onnx::Mul_637: 3c00f21d
input.347: 3d763a4e
onnx::Sigmoid_639: 3d9cdf63
onnx::Mul_640: 3c00f89e
input.351: 3d83ab6e
onnx::Sigmoid_642: 3d8f6599
onnx::Mul_643: 3c00f94a
input.355: 3d84e026
onnx::Sigmoid_645: 3d92d6cd
onnx::Mul_646: 3c00fd1a
input.359: 3d8dfbb1
onnx::Sigmoid_648: 3d9b1ce7
onnx::Mul_649: 3c00fc56
onnx::Concat_650: 3d8ba833
onnx::Sigmoid_651: 3d81d5f1
onnx::Mul_652: 3c00f73d
onnx::Concat_653: 3d816199
input.363: 3d8ba833
onnx::Sigmoid_655: 3da64fa9
onnx::Mul_656: 3c0100be
input.367: 3da3f904
onnx::Sigmoid_658: 3d956d2b
onnx::Mul_659: 3c00fde1
input.371: 3d90fe74
onnx::Concat_665: 3d90fe74
input.375: 3dc2726a
onnx::Sigmoid_667: 3d659336
onnx::Mul_668: 3bfe07ce
input.379: 3d03ee31
onnx::Sigmoid_670: 3d78a861
onnx::Mul_671: 3c00f285
input.383: 3d77107d
onnx::Sigmoid_673: 3d793161
onnx::Mul_674: 3c00c42c
input.387: 3d4a1e8d
onnx::Sigmoid_676: 3d8ac79c
onnx::Mul_677: 3c00fafb
input.391: 3d884fef
onnx::Sigmoid_679: 3d8ce833
onnx::Mul_680: 3c00fcc2
input.395: 3d8ce275
onnx::Sigmoid_682: 3dad9aaa
onnx::Mul_683: 3c00ff5c
input.399: 3d980a20
onnx::Sigmoid_685: 3db8ec00
onnx::Mul_686: 3c010055
onnx::Concat_687: 3d9f4eb2
onnx::Sigmoid_688: 3dd25b43
onnx::Mul_689: 3c00f3cb
onnx::Concat_690: 3d79d71b
input.403: 3d9f4eb2
onnx::Sigmoid_692: 3e2ab5a4
onnx::Mul_693: 3c0101fa
input.407: 3ddb79e5
onnx::Sigmoid_695: 3dceca36
onnx::Mul_696: 3c010102
onnx::Concat_697: 3da7bd39
input.411: 3da7bd39
onnx::Sigmoid_699: 3d944ca5
onnx::Mul_700: 3c00fea7
input.415: 3d9448c8
onnx::Sigmoid_702: 3d8d7fe3
onnx::Mul_703: 3c00fcf2
input.419: 3d8d7a53
onnx::Sigmoid_705: 3d91bc05
onnx::Mul_706: 3c00fbfc
input.423: 3d8ab91b
onnx::Sigmoid_708: 3da3fae1
onnx::Mul_709: 3c0100be
input.427: 3da3f943
onnx::Sigmoid_711: 3dbc5824
onnx::Mul_712: 3c0101bc
input.431: 3dbc57bb
onnx::Sigmoid_714: 3dd62a95
onnx::Mul_715: 3c00fef3
input.435: 3d95c254
onnx::Sigmoid_717: 3dd3424c
onnx::Mul_718: 3c0101ed
onnx::Concat_719: 3dcebcaa
onnx::Sigmoid_720: 3d9c23b3
onnx::Mul_721: 3c00f229
onnx::Concat_722: 3d765230
input.439: 3dcebcaa
onnx::Sigmoid_724: 3dc9ac38
onnx::Mul_725: 3c0101e5
input.443: 3dc9ac08
onnx::Sigmoid_727: 3d9e84bb
onnx::Mul_728: 3c010040
onnx::Concat_729: 3d9e8290
input.447: 3d9e8290
onnx::Sigmoid_731: 3da683b7
onnx::Mul_732: 3c00f464
input.451: 3d7b3a5c
onnx::Sigmoid_734: 3da31b07
onnx::Mul_735: 3c0100ac
input.455: 3da31955
onnx::Sigmoid_737: 3d8f111b
onnx::Mul_738: 3c00edeb
input.459: 3d6ea4d4
onnx::Sigmoid_740: 3d9ac03a
onnx::Mul_741: 3c00fe7d
input.463: 3d937f82
onnx::Sigmoid_743: 3dbe450f
onnx::Mul_744: 3c0101c5
input.467: 3dbe44b1
onnx::Sigmoid_746: 3dc5cc68
onnx::Mul_747: 3c010114
input.471: 3da8dc0c
onnx::Sigmoid_749: 3dab7123
onnx::Mul_750: 3c00f4a7
onnx::Concat_751: 3d7bdbe3
onnx::Sigmoid_752: 3d9aec53
onnx::Mul_753: 3c00de00
onnx::Concat_754: 3d5bb888
input.475: 3d7bdbe3
onnx::Sigmoid_756: 3da504a5
onnx::Mul_757: 3c0100b3
input.479: 3da36b3f
onnx::Sigmoid_759: 3d8b18f2
onnx::Mul_760: 3c00fc1e
onnx::Concat_761: 3d8b1296
input.483: 3d8b1296
onnx::Sigmoid_763: 3d557277
onnx::Mul_764: 3c00d5c9
input.487: 3d5509fb
onnx::Sigmoid_766: 3d3ebcdc
onnx::Mul_767: 3c00a90c
input.491: 3d3e3952
onnx::Sigmoid_769: 3d4a682e
onnx::Mul_770: 3c00b765
input.495: 3d43fbe7
onnx::Sigmoid_772: 3d7e79fc
onnx::Mul_773: 3c00f5a8
input.499: 3d7e619b
onnx::Sigmoid_775: 3d81def8
onnx::Mul_776: 3c00f786
input.503: 3d81d468
onnx::Sigmoid_778: 3d871876
onnx::Mul_779: 3c00e89a
input.507: 3d670902
onnx::Sigmoid_781: 3d906272
onnx::Mul_782: 3c00c789
onnx::Concat_783: 3d4bf186
onnx::Sigmoid_784: 3d70ca91
onnx::Mul_785: 3c00ef21
onnx::Concat_786: 3d70a751
input.511: 3d70a751
onnx::Sigmoid_788: 3d99cc72
onnx::Mul_789: 3c00ee0f
input.515: 3d6edf08
onnx::Concat_791: 3e42169d
onnx::Concat_792: 3e368df0
onnx::Reshape_793: 3e42169d
onnx::Slice_806: 3e42169d
onnx::Sigmoid_811: 3e42169d
onnx::Slice_816: 3dcc5835
onnx::Slice_817: 3c00ab58
onnx::Mul_822: 3bf9315b
(Unnamed Layer* 475) [Shuffle]_output: 3c810204
onnx::Sub_824: 3c79315b
(Unnamed Layer* 478) [Shuffle]_output: 3b810204
onnx::Add_826: 3c38b059
(Unnamed Layer* 480) [Constant]_output: 3f4f9f3e
onnx::Mul_828: 3f51fafd
(Unnamed Layer* 483) [Shuffle]_output: 3d810204
onnx::Concat_830: 40d1fafd
onnx::Mul_835: 3c00ab58
(Unnamed Layer* 487) [Shuffle]_output: 3c810204
onnx::Pow_837: 3c80ab58
(Unnamed Layer* 490) [Shuffle]_output: 3c810204
onnx::Mul_840: 3d0054e6
(Unnamed Layer* 492) [Constant]_output: 3f3d7af6
onnx::Concat_845: 4039c0f4
onnx::Mul_850: 3d1cc75f
(Unnamed Layer* 496) [Shuffle]_output: 3c810204
onnx::Sub_852: 3d9cc75f
(Unnamed Layer* 499) [Shuffle]_output: 3b810204
onnx::Add_854: 3d94b73e
(Unnamed Layer* 501) [Constant]_output: 3f4f9f3e
onnx::Mul_856: 3f53bea2
(Unnamed Layer* 504) [Shuffle]_output: 3d810204
onnx::Unsqueeze_858: 40d3bea2
onnx::Mul_863: 3dcc5835
(Unnamed Layer* 508) [Shuffle]_output: 3c810204
onnx::Sub_865: 3e4c5835
(Unnamed Layer* 511) [Shuffle]_output: 3b810204
onnx::Add_867: 3e485025
(Unnamed Layer* 513) [Constant]_output: 3f4f9f3e
onnx::Mul_869: 3f607f8f
(Unnamed Layer* 516) [Shuffle]_output: 3d810204
onnx::Unsqueeze_871: 40e07f8f
onnx::Sigmoid_876: 3d76e642
onnx::Unsqueeze_877: 3c00f263
onnx::Concat_878: 40d3bea2
onnx::Concat_879: 40e07f8f
onnx::Concat_880: 3c00f263
onnx::Reshape_881: 40e07f8f
onnx::Concat_890: 40e07f8f
onnx::Concat_895: 3bfd956c
onnx::Reshape_896: 40e07f8f
onnx::Concat_903: 40e07f8f
onnx::Concat_904: 3e20807f
onnx::Concat_905: 3e2b0904
onnx::Reshape_906: 3e2b0904
onnx::Slice_919: 3e2b0904
onnx::Sigmoid_924: 3e2b0904
onnx::Slice_929: 3da26a12
onnx::Slice_930: 3c000ae0
onnx::Mul_935: 3bfd3caf
(Unnamed Layer* 538) [Shuffle]_output: 3c810204
onnx::Sub_937: 3c7d3caf
(Unnamed Layer* 541) [Shuffle]_output: 3b810204
onnx::Add_939: 3c3cbbad
(Unnamed Layer* 543) [Constant]_output: 3ecd9b36
onnx::Mul_941: 3ed0e47a
(Unnamed Layer* 546) [Shuffle]_output: 3e010204
onnx::Concat_943: 40d0e47a
onnx::Mul_948: 3c000ae0
(Unnamed Layer* 550) [Shuffle]_output: 3c810204
onnx::Pow_950: 3c800ae0
(Unnamed Layer* 553) [Shuffle]_output: 3c810204
onnx::Mul_953: 3cfe2b2a
(Unnamed Layer* 555) [Constant]_output: 3fb56ad6
onnx::Concat_958: 40923717
onnx::Mul_963: 3d35b45b
(Unnamed Layer* 559) [Shuffle]_output: 3c810204
onnx::Sub_965: 3db5b45b
(Unnamed Layer* 562) [Shuffle]_output: 3b810204
onnx::Add_967: 3dada43a
(Unnamed Layer* 564) [Constant]_output: 3ecd9b36
onnx::Mul_969: 3edba05e
(Unnamed Layer* 567) [Shuffle]_output: 3e010204
onnx::Unsqueeze_971: 40dba05e
onnx::Mul_976: 3da26a12
(Unnamed Layer* 571) [Shuffle]_output: 3c810204
onnx::Sub_978: 3e226a12
(Unnamed Layer* 574) [Shuffle]_output: 3b810204
onnx::Add_980: 3e1e6202
(Unnamed Layer* 576) [Constant]_output: 3ecd9b36
onnx::Mul_982: 3ee84e94
(Unnamed Layer* 579) [Shuffle]_output: 3e010204
onnx::Unsqueeze_984: 40e84e94
onnx::Sigmoid_989: 3d816dec
onnx::Unsqueeze_990: 3c00d0fd
onnx::Concat_991: 40dba05e
onnx::Concat_992: 40e84e94
onnx::Concat_993: 3c00d0fd
onnx::Reshape_994: 40e84e94
onnx::Concat_1003: 40e84e94
onnx::Concat_1008: 3bfde967
onnx::Reshape_1009: 40e84e94
onnx::Concat_1016: 40e84e94
onnx::Concat_1017: 3df2a866
onnx::Concat_1018: 3e006208
onnx::Reshape_1019: 3e006208
onnx::Slice_1032: 3e006208
onnx::Sigmoid_1037: 3e006208
onnx::Slice_1042: 3d83d71b
onnx::Slice_1043: 3bfec44f
onnx::Mul_1048: 3bfec44f
(Unnamed Layer* 601) [Shuffle]_output: 3c810204
onnx::Sub_1050: 3c7ec44f
(Unnamed Layer* 604) [Shuffle]_output: 3b810204
onnx::Add_1052: 3c3e434d
(Unnamed Layer* 606) [Constant]_output: 3e499326
onnx::Mul_1054: 3e4dcd3c
(Unnamed Layer* 609) [Shuffle]_output: 3e810204
onnx::Concat_1056: 40cdcd3c
onnx::Mul_1061: 3bf4d107
(Unnamed Layer* 613) [Shuffle]_output: 3c810204
onnx::Pow_1063: 3c74d107
(Unnamed Layer* 616) [Shuffle]_output: 3c810204
onnx::Mul_1066: 3ce84ae2
(Unnamed Layer* 618) [Constant]_output: 40889122
onnx::Concat_1071: 40cc41f0
onnx::Mul_1076: 3cf13efd
(Unnamed Layer* 622) [Shuffle]_output: 3c810204
onnx::Sub_1078: 3d713efd
(Unnamed Layer* 625) [Shuffle]_output: 3b810204
onnx::Add_1080: 3d611ebc
(Unnamed Layer* 627) [Constant]_output: 3e499326
onnx::Mul_1082: 3e619a55
(Unnamed Layer* 630) [Shuffle]_output: 3e810204
onnx::Unsqueeze_1084: 40e19a55
onnx::Mul_1089: 3d6a28f8
(Unnamed Layer* 634) [Shuffle]_output: 3c810204
onnx::Sub_1091: 3dea28f8
(Unnamed Layer* 637) [Shuffle]_output: 3b810204
onnx::Add_1093: 3de218d8
(Unnamed Layer* 639) [Constant]_output: 3e499326
onnx::Mul_1095: 3e72caea
(Unnamed Layer* 642) [Shuffle]_output: 3e810204
onnx::Unsqueeze_1097: 40f2caea
onnx::Sigmoid_1102: 3d83d71b
onnx::Unsqueeze_1103: 3c0092b6
onnx::Concat_1104: 40e19a55
onnx::Concat_1105: 40f2caea
onnx::Concat_1106: 3c0092b6
onnx::Reshape_1107: 40f2caea
onnx::Concat_1116: 40f2caea
onnx::Concat_1121: 3bfde14a
onnx::Reshape_1122: 40f2caea
onnx::Concat_1129: 40f2caea
onnx::Concat_1130: 3ddd771c
onnx::Concat_1131: 3de4794a
onnx::Reshape_1132: 3de4794a
onnx::Slice_1145: 3de4794a
onnx::Sigmoid_1150: 3de4794a
onnx::Slice_1155: 3d8f51d7
onnx::Slice_1156: 3bfeb5b9
onnx::Mul_1161: 3bfeb5b9
(Unnamed Layer* 664) [Shuffle]_output: 3c810204
onnx::Sub_1163: 3c7eb5b9
(Unnamed Layer* 667) [Shuffle]_output: 3b810204
onnx::Add_1165: 3c3e34b7
(Unnamed Layer* 669) [Constant]_output: 3dc18306
onnx::Mul_1167: 3dc75301
(Unnamed Layer* 672) [Shuffle]_output: 3f010204
onnx::Concat_1169: 40c75301
onnx::Mul_1174: 3bbd3f47
(Unnamed Layer* 676) [Shuffle]_output: 3c810204
onnx::Pow_1176: 3c3d3f47
(Unnamed Layer* 679) [Shuffle]_output: 3c810204
onnx::Mul_1179: 3c8aceb0
(Unnamed Layer* 681) [Constant]_output: 40e91224
onnx::Concat_1184: 40d176a3
onnx::Mul_1189: 3c85d253
(Unnamed Layer* 685) [Shuffle]_output: 3c810204
onnx::Sub_1191: 3d05d253
(Unnamed Layer* 688) [Shuffle]_output: 3b810204
onnx::Add_1193: 3ceb6424
(Unnamed Layer* 690) [Constant]_output: 3dc18306
onnx::Mul_1195: 3de46481
(Unnamed Layer* 693) [Shuffle]_output: 3f010204
onnx::Unsqueeze_1197: 40e46481
onnx::Mul_1202: 3cdc2e47
(Unnamed Layer* 697) [Shuffle]_output: 3c810204
onnx::Sub_1204: 3d5c2e47
(Unnamed Layer* 700) [Shuffle]_output: 3b810204
onnx::Add_1206: 3d4c0e06
(Unnamed Layer* 702) [Constant]_output: 3dc18306
onnx::Mul_1208: 3de4efb5
(Unnamed Layer* 705) [Shuffle]_output: 3f010204
onnx::Unsqueeze_1210: 40e4efb5
onnx::Sigmoid_1215: 3d8f51d7
onnx::Unsqueeze_1216: 3c00663c
onnx::Concat_1217: 40e46481
onnx::Concat_1218: 40e4efb5
onnx::Concat_1219: 3c00663c
onnx::Reshape_1220: 40e4efb5
onnx::Concat_1229: 40e4efb5
onnx::Concat_1234: 3bfdd4f9
onnx::Reshape_1235: 40e4efb5
onnx::Concat_1242: 40e4efb5
onnx::Slice_1243: 40f2caea
TRT::EfficientNMS_ONNX_TRT_1249: 40d1fafd
onnx::Mul_1251: 3bfcb059
onnx::Mul_1253: 3bfde967
onnx::Unsqueeze_1254: 3bf7f5e9
scores: 3bf7f5e9
onnx::Gather_1256: 43a1fefe
(Unnamed Layer* 728) [Shuffle]_output: 43a1fefe
onnx::Tile_1271: 43a1fefe
det_indices: 43a1fefe
det_boxes: 40b3870e
onnx::Gather_1278: 40f2caea
det_pose: 40d3e7d0
det_scores: 3bf7efe0
