TRT-8401-MinMaxCalibration
input: 3c010204
onnx::Reshape_307: 3c010204
input.1: 3c010204
onnx::Sigmoid_317: 3eec5d01
onnx::Mul_318: 3c010204
input.3: 3eec5d01
onnx::Sigmoid_320: 3ee2d7e2
onnx::Mul_321: 3c010204
input.7: 3ebbfccb
onnx::Sigmoid_323: 3ea8cfb1
onnx::Mul_324: 3c010204
input.11: 3e10eb3c
onnx::Sigmoid_326: 3e608baf
onnx::Mul_327: 3c0101fe
input.15: 3de487b2
onnx::Sigmoid_329: 3e185fd5
onnx::Mul_330: 3c010204
onnx::Add_331: 3e185fd5
input.19: 3e277218
onnx::Sigmoid_333: 3e26cb05
onnx::Mul_334: 3c010201
input.23: 3df1046a
onnx::Sigmoid_336: 3e20d1d9
onnx::Mul_337: 3c0101f8
onnx::Add_338: 3dd8267a
input.27: 3e4a8ae4
onnx::Sigmoid_340: 3de3430e
onnx::Mul_341: 3c0101cf
input.31: 3dc11296
onnx::Sigmoid_343: 3e1a5e2a
onnx::Mul_344: 3c010204
onnx::Add_345: 3e1a5e2a
onnx::Concat_346: 3e84e0ec
onnx::Sigmoid_347: 3ee8b734
onnx::Mul_348: 3c010204
onnx::Concat_349: 3e982d35
input.35: 3e982d35
onnx::Sigmoid_351: 3e1958c2
onnx::Mul_352: 3c0101fc
input.39: 3dde5ef0
onnx::Sigmoid_354: 3e062592
onnx::Mul_355: 3c010204
input.43: 3e062592
onnx::Sigmoid_357: 3d9d35ed
onnx::Mul_358: 3c00f90a
input.47: 3d846b88
onnx::Sigmoid_360: 3db67867
onnx::Mul_361: 3c01019c
input.51: 3db677d4
onnx::Sigmoid_363: 3d7910a5
onnx::Mul_364: 3c009e43
onnx::Add_365: 3d3a79f5
input.55: 3d81717c
onnx::Sigmoid_367: 3dbb235c
onnx::Mul_368: 3c0101b7
input.59: 3dbb22ec
onnx::Sigmoid_370: 3d7b1218
onnx::Mul_371: 3c00d68d
onnx::Add_372: 3d559b87
input.63: 3d9775d3
onnx::Sigmoid_374: 3d98dfe2
onnx::Mul_375: 3c00fbaf
input.67: 3d89f69d
onnx::Sigmoid_377: 3da2d976
onnx::Mul_378: 3c00debf
onnx::Add_379: 3d5c66b3
input.71: 3da0f2f0
onnx::Sigmoid_381: 3d9ed946
onnx::Mul_382: 3c00ff2f
input.75: 3d9709a1
onnx::Sigmoid_384: 3d9054e4
onnx::Mul_385: 3c00fc03
onnx::Add_386: 3d8ac9dd
input.79: 3dd9c8a7
onnx::Sigmoid_388: 3d917a97
onnx::Mul_389: 3c00fe09
input.83: 3d917619
onnx::Sigmoid_391: 3da6472f
onnx::Mul_392: 3c0100e9
onnx::Add_393: 3da645c3
input.87: 3de0a335
onnx::Sigmoid_395: 3db26444
onnx::Mul_396: 3c01017f
input.91: 3db2638b
onnx::Sigmoid_398: 3dcbd753
onnx::Mul_399: 3c0101e9
onnx::Add_400: 3dcbd727
input.95: 3ddd465c
onnx::Sigmoid_402: 3dadebe9
onnx::Mul_403: 3c01014a
input.99: 3daccd1a
onnx::Sigmoid_405: 3df8412c
onnx::Mul_406: 3c0101e8
onnx::Add_407: 3dcb0f45
input.103: 3e09228f
onnx::Sigmoid_409: 3d8be611
onnx::Mul_410: 3c00fc69
input.107: 3d8bdffd
onnx::Sigmoid_412: 3dac7aaf
onnx::Mul_413: 3c010146
onnx::Add_414: 3dac79b1
input.111: 3e283c08
onnx::Sigmoid_416: 3db06124
onnx::Mul_417: 3c00fcb0
input.115: 3d8cace1
onnx::Sigmoid_419: 3dff1895
onnx::Mul_420: 3c010203
onnx::Add_421: 3dff1893
onnx::Concat_422: 3e466d20
onnx::Sigmoid_423: 3e4aaa84
onnx::Mul_424: 3c010204
onnx::Concat_425: 3e4aaa84
input.119: 3e4aaa84
onnx::Sigmoid_427: 3dee83e6
onnx::Mul_428: 3c010201
input.123: 3dee83e0
onnx::Sigmoid_430: 3dfbf230
onnx::Mul_431: 3c010203
input.127: 3dfbf22d
onnx::Sigmoid_433: 3dd3d821
onnx::Mul_434: 3c0101f3
input.131: 3dd3d806
onnx::Sigmoid_436: 3e248d79
onnx::Mul_437: 3c010204
input.135: 3e248d79
onnx::Sigmoid_439: 3d8fccc2
onnx::Mul_440: 3c0086f6
onnx::Add_441: 3d339379
input.139: 3dd0ab23
onnx::Sigmoid_443: 3e3a4c71
onnx::Mul_444: 3c010204
input.143: 3e3a4c71
onnx::Sigmoid_446: 3dac5244
onnx::Mul_447: 3c00e1d7
onnx::Add_448: 3d5f6086
input.147: 3dce6d4c
onnx::Sigmoid_450: 3dbff77f
onnx::Mul_451: 3c01014d
input.151: 3dad0815
onnx::Sigmoid_453: 3d7b6e61
onnx::Mul_454: 3c00f46e
onnx::Add_455: 3d7b53e7
input.155: 3dcc8511
onnx::Sigmoid_457: 3db2e996
onnx::Mul_458: 3c010183
input.159: 3db2e8e3
onnx::Sigmoid_460: 3d862d36
onnx::Mul_461: 3c00f9f3
onnx::Add_462: 3d8624d3
input.163: 3dcc0cf4
onnx::Sigmoid_464: 3dbcf076
onnx::Mul_465: 3c0101bf
input.167: 3dbcf011
onnx::Sigmoid_467: 3d940efc
onnx::Mul_468: 3c00fe9b
onnx::Add_469: 3d940b12
input.171: 3e115271
onnx::Sigmoid_471: 3db6dabd
onnx::Mul_472: 3c01019f
input.175: 3db6da2e
onnx::Sigmoid_474: 3d9af442
onnx::Mul_475: 3c00fda2
onnx::Add_476: 3d8ff129
input.179: 3e102680
onnx::Sigmoid_478: 3d8dbf12
onnx::Mul_479: 3c00f9d1
input.183: 3d85e25e
onnx::Sigmoid_481: 3defc6e4
onnx::Mul_482: 3c010201
onnx::Add_483: 3defc6de
input.187: 3e0f9911
onnx::Sigmoid_485: 3d94e16b
onnx::Mul_486: 3c00f278
input.191: 3d76f3e3
onnx::Sigmoid_488: 3dd816f0
onnx::Mul_489: 3c0101f7
onnx::Add_490: 3dd816db
input.195: 3e193cfb
onnx::Sigmoid_492: 3d8690d4
onnx::Mul_493: 3c00f091
input.199: 3d733a00
onnx::Sigmoid_495: 3e1f3201
onnx::Mul_496: 3c010204
onnx::Add_497: 3e1f3201
onnx::Concat_498: 3e3a1958
onnx::Sigmoid_499: 3e1ec2a6
onnx::Mul_500: 3c010204
onnx::Concat_501: 3e1ec2a6
input.203: 3e3a1958
onnx::Sigmoid_503: 3dcf4c9e
onnx::Mul_504: 3c0101ee
input.207: 3dcf4c7b
onnx::Sigmoid_506: 3daf01f0
onnx::Mul_507: 3c010162
input.211: 3daf0114
onnx::Sigmoid_509: 3da0adcf
onnx::Mul_510: 3c010075
input.215: 3da0abde
onnx::Sigmoid_512: 3e3137cf
onnx::Mul_513: 3c010204
input.219: 3e3137cf
onnx::Sigmoid_515: 3e01f28d
onnx::Mul_516: 3c00ec8e
onnx::Add_517: 3d6c84f4
input.223: 3da00b37
onnx::Sigmoid_519: 3db35e97
onnx::Mul_520: 3c010187
input.227: 3db35de9
onnx::Sigmoid_522: 3de2bd5f
onnx::Mul_523: 3c00fb50
onnx::Add_524: 3d89105e
input.231: 3da413ee
onnx::Sigmoid_526: 3dab4603
onnx::Mul_527: 3c010136
input.235: 3dab44f2
onnx::Sigmoid_529: 3de5f814
onnx::Mul_530: 3c0101ff
onnx::Add_531: 3de5f80b
onnx::Concat_532: 3ddd3587
onnx::Sigmoid_533: 3ddda87e
onnx::Mul_534: 3c0101fb
onnx::Concat_535: 3ddda86f
input.239: 3ddda86f
onnx::Sigmoid_537: 3dc6451d
onnx::Mul_538: 3c0101de
input.243: 3dc644e3
onnx::Sigmoid_540: 3db21f84
onnx::Mul_541: 3c01017d
input.247: 3db21eca
onnx::Sigmoid_543: 3d8666c6
onnx::Mul_544: 3c00fa10
onnx::MaxPool_545: 3d865e7d
onnx::Concat_546: 3d865e7d
onnx::MaxPool_547: 3d865e7d
onnx::Concat_548: 3d865e7d
onnx::MaxPool_549: 3d865e7d
onnx::MaxPool_550: 3d865e7d
onnx::Concat_551: 3d865e7d
input.251: 3d865e7d
onnx::Sigmoid_553: 3d7d7c34
onnx::Mul_554: 3c00d627
input.255: 3d554f27
onnx::Sigmoid_556: 3d56399f
onnx::Mul_557: 3c00ac24
input.259: 3d3f6217
onnx::Sigmoid_559: 3d31ea01
onnx::Mul_560: 3c007dc6
input.263: 3d3133a0
onnx::Sigmoid_562: 3d590408
onnx::Mul_563: 3c00da90
input.267: 3d58c1aa
onnx::Sigmoid_565: 3d6fa051
onnx::Mul_566: 3c00ee6f
input.271: 3d6f7bf1
onnx::Sigmoid_568: 3d848e12
onnx::Mul_569: 3c00f917
input.275: 3d8484e7
onnx::Sigmoid_571: 3d5f00bf
onnx::Mul_572: 3c00e13e
input.279: 3d5ec819
onnx::Sigmoid_574: 3d4042c7
onnx::Mul_575: 3c00ad23
onnx::Concat_576: 3d3fc449
onnx::Sigmoid_577: 3d59f2dd
onnx::Mul_578: 3c00db06
onnx::Concat_579: 3d592355
input.283: 3d592355
onnx::Sigmoid_581: 3d5a2e6d
onnx::Mul_582: 3c00dbf6
input.287: 3d59ee11
onnx::Sigmoid_584: 3d3e1ab3
onnx::Mul_585: 3c000a0b
input.291: 3d1c5777
onnx::Concat_591: 3d1c5777
input.295: 3dc644e3
onnx::Sigmoid_593: 3d9c12d0
onnx::Mul_594: 3c00e185
input.299: 3d5f0df7
onnx::Sigmoid_596: 3dbd4087
onnx::Mul_597: 3c00ff11
input.303: 3d9663f4
onnx::Sigmoid_599: 3d868e2a
onnx::Mul_600: 3c00e3cd
input.307: 3d616bee
onnx::Sigmoid_602: 3da532d7
onnx::Mul_603: 3c0100d6
input.311: 3da53154
onnx::Sigmoid_605: 3d88e57d
onnx::Mul_606: 3c00f846
input.315: 3d8312da
onnx::Sigmoid_608: 3d95cee3
onnx::Mul_609: 3c00fef4
input.319: 3d95cb55
onnx::Sigmoid_611: 3d97e884
onnx::Mul_612: 3c00f4cb
onnx::Concat_613: 3d7c3393
onnx::Sigmoid_614: 3d7f6eb0
onnx::Mul_615: 3c00eb6c
onnx::Concat_616: 3d6ada50
input.323: 3d7c3393
onnx::Sigmoid_618: 3da2f0ba
onnx::Mul_619: 3c00fae4
input.327: 3d881b58
onnx::Sigmoid_621: 3d6fd287
onnx::Mul_622: 3c0054ec
input.331: 3d284eb3
onnx::Concat_628: 3d284eb3
input.335: 3dcf4c7b
onnx::Sigmoid_630: 3d8da6af
onnx::Mul_631: 3c00f046
input.339: 3d72ad8d
onnx::Sigmoid_633: 3db4cd1c
onnx::Mul_634: 3c010142
input.343: 3dac1d3a
onnx::Sigmoid_636: 3d7b32ec
onnx::Mul_637: 3c00f456
input.347: 3d7b1849
onnx::Sigmoid_639: 3da3957e
onnx::Mul_640: 3c0100b6
input.351: 3da393d7
onnx::Sigmoid_642: 3d96ec36
onnx::Mul_643: 3c00ff29
input.355: 3d96e8e0
onnx::Sigmoid_645: 3da36175
onnx::Mul_646: 3c00fc1a
input.359: 3d8b058a
onnx::Sigmoid_648: 3d9e1f12
onnx::Mul_649: 3c010035
onnx::Concat_650: 3d9e1cdb
onnx::Sigmoid_651: 3d9462f5
onnx::Mul_652: 3c00f189
onnx::Concat_653: 3d751291
input.363: 3d9e1cdb
onnx::Sigmoid_655: 3d9f23ea
onnx::Mul_656: 3c00fe6e
input.367: 3d933a5d
onnx::Sigmoid_658: 3da7c7b1
onnx::Mul_659: 3c00feea
input.371: 3d95947d
onnx::Concat_665: 3d95947d
input.375: 3dee83e0
onnx::Sigmoid_667: 3d704207
onnx::Mul_668: 3c0077ea
input.379: 3d2fc570
onnx::Sigmoid_670: 3d92e882
onnx::Mul_671: 3c00e167
input.383: 3d5ef0ea
onnx::Sigmoid_673: 3d5695cd
onnx::Mul_674: 3c00d77b
input.387: 3d564f0c
onnx::Sigmoid_676: 3dadaf25
onnx::Mul_677: 3c00ff27
input.391: 3d96da84
onnx::Sigmoid_679: 3d93a957
onnx::Mul_680: 3c00fe58
input.395: 3d92d2c4
onnx::Sigmoid_682: 3ddb3485
onnx::Mul_683: 3c00fecf
input.399: 3d950a74
onnx::Sigmoid_685: 3dadc2ec
onnx::Mul_686: 3c0100d4
onnx::Concat_687: 3da51285
onnx::Sigmoid_688: 3e2e9d12
onnx::Mul_689: 3c00ffa2
onnx::Concat_690: 3d99bcb8
input.403: 3da51285
onnx::Sigmoid_692: 3e27f3af
onnx::Mul_693: 3c010203
input.407: 3dfd8272
onnx::Sigmoid_695: 3dca396f
onnx::Mul_696: 3c00ff88
onnx::Concat_697: 3d99141c
input.411: 3d99141c
onnx::Sigmoid_699: 3d9fedd6
onnx::Mul_700: 3c00fec8
input.415: 3d94e877
onnx::Sigmoid_702: 3da7f567
onnx::Mul_703: 3c010106
input.419: 3da7f41c
onnx::Sigmoid_705: 3d8906b8
onnx::Mul_706: 3c00f7f1
input.423: 3d828519
onnx::Sigmoid_708: 3dbaf9b0
onnx::Mul_709: 3c0101b6
input.427: 3dbaf93f
onnx::Sigmoid_711: 3dba3099
onnx::Mul_712: 3c00fcd5
input.431: 3d8d1e2f
onnx::Sigmoid_714: 3db03217
onnx::Mul_715: 3c010051
input.435: 3d9f29e8
onnx::Sigmoid_717: 3dcbebf1
onnx::Mul_718: 3c0100ae
onnx::Concat_719: 3da3350f
onnx::Sigmoid_720: 3d8a09c4
onnx::Mul_721: 3c00d4f9
onnx::Concat_722: 3d54726f
input.439: 3da3350f
onnx::Sigmoid_724: 3dc40579
onnx::Mul_725: 3c0101b3
input.443: 3dba757f
onnx::Sigmoid_727: 3da832f4
onnx::Mul_728: 3c01010a
onnx::Concat_729: 3da831ad
input.447: 3da831ad
onnx::Sigmoid_731: 3db8e7da
onnx::Mul_732: 3c00ff72
input.451: 3d988d0a
onnx::Sigmoid_734: 3da1acc9
onnx::Mul_735: 3c01008e
input.455: 3da1aaf4
onnx::Sigmoid_737: 3d921079
onnx::Mul_738: 3c00f9aa
input.459: 3d8596a0
onnx::Sigmoid_740: 3dc07fc4
onnx::Mul_741: 3c0101cd
input.463: 3dc07f71
onnx::Sigmoid_743: 3da517a7
onnx::Mul_744: 3c0100d4
input.467: 3da51622
onnx::Sigmoid_746: 3dcc3237
onnx::Mul_747: 3c00fd14
input.471: 3d8de81b
onnx::Sigmoid_749: 3da860f9
onnx::Mul_750: 3c00f91e
onnx::Concat_751: 3d84905d
onnx::Sigmoid_752: 3db095f8
onnx::Mul_753: 3c00e0bd
onnx::Concat_754: 3d5e49ff
input.475: 3d84905d
onnx::Sigmoid_756: 3d9f1798
onnx::Mul_757: 3c00fdc6
input.479: 3d9086f7
onnx::Sigmoid_759: 3dba589e
onnx::Mul_760: 3c0101b3
onnx::Concat_761: 3dba5829
input.483: 3dba5829
onnx::Sigmoid_763: 3d7bec7f
onnx::Mul_764: 3c00f4a3
input.487: 3d7bd25f
onnx::Sigmoid_766: 3d86a8e5
onnx::Mul_767: 3c00fa30
input.491: 3d86a0b9
onnx::Sigmoid_769: 3d929f88
onnx::Mul_770: 3c00ec1b
input.495: 3d6bd8fb
onnx::Sigmoid_772: 3daf8e3c
onnx::Mul_773: 3c00fd6a
input.499: 3d8f1861
onnx::Sigmoid_775: 3daf6f94
onnx::Mul_776: 3c00ffad
input.503: 3d9a04e9
onnx::Sigmoid_778: 3dd67563
onnx::Mul_779: 3c00fed1
input.507: 3d951522
onnx::Sigmoid_781: 3d8fe40f
onnx::Mul_782: 3c00eba8
onnx::Concat_783: 3d6b30b9
onnx::Sigmoid_784: 3d8f3de0
onnx::Mul_785: 3c00fd73
onnx::Concat_786: 3d8f38ce
input.511: 3d8f38ce
onnx::Sigmoid_788: 3dab6de2
onnx::Mul_789: 3c00fe7b
input.515: 3d937773
onnx::Concat_791: 3e4c6a42
onnx::Concat_792: 3e3845d9
onnx::Reshape_793: 3e4c6a42
onnx::Slice_806: 3e4c6a42
onnx::Sigmoid_811: 3e4c6a42
onnx::Slice_816: 3dc2b409
onnx::Slice_817: 3c009224
onnx::Mul_822: 3bfa8824
(Unnamed Layer* 475) [Shuffle]_output: 3c810204
onnx::Sub_824: 3c7a8824
(Unnamed Layer* 478) [Shuffle]_output: 3b810204
onnx::Add_826: 3c3a0722
(Unnamed Layer* 480) [Constant]_output: 3f4f9f3e
onnx::Mul_828: 3f52274d
(Unnamed Layer* 483) [Shuffle]_output: 3d810204
onnx::Concat_830: 40d2274d
onnx::Mul_835: 3c009224
(Unnamed Layer* 487) [Shuffle]_output: 3c810204
onnx::Pow_837: 3c809224
(Unnamed Layer* 490) [Shuffle]_output: 3c810204
onnx::Mul_840: 3d0022a6
(Unnamed Layer* 492) [Constant]_output: 3f3d7af6
onnx::Concat_845: 4039ecdd
onnx::Mul_850: 3d20a26c
(Unnamed Layer* 496) [Shuffle]_output: 3c810204
onnx::Sub_852: 3da0a26c
(Unnamed Layer* 499) [Shuffle]_output: 3b810204
onnx::Add_854: 3d98924c
(Unnamed Layer* 501) [Constant]_output: 3f4f9f3e
onnx::Mul_856: 3f539003
(Unnamed Layer* 504) [Shuffle]_output: 3d810204
onnx::Unsqueeze_858: 40d39003
onnx::Mul_863: 3dc2b409
(Unnamed Layer* 508) [Shuffle]_output: 3c810204
onnx::Sub_865: 3e42b409
(Unnamed Layer* 511) [Shuffle]_output: 3b810204
onnx::Add_867: 3e3eabf9
(Unnamed Layer* 513) [Constant]_output: 3f4f9f3e
onnx::Mul_869: 3f604aed
(Unnamed Layer* 516) [Shuffle]_output: 3d810204
onnx::Unsqueeze_871: 40e04aed
onnx::Sigmoid_876: 3d8b27d1
onnx::Unsqueeze_877: 3c00f1d6
onnx::Concat_878: 40d39003
onnx::Concat_879: 40e04aed
onnx::Concat_880: 3c00f1d6
onnx::Reshape_881: 40e04aed
onnx::Concat_890: 40e04aed
onnx::Concat_895: 3bfd956c
onnx::Reshape_896: 40e04aed
onnx::Concat_903: 40e04aed
onnx::Concat_904: 3e22b6cd
onnx::Concat_905: 3e2b43a1
onnx::Reshape_906: 3e2b43a1
onnx::Slice_919: 3e2b43a1
onnx::Sigmoid_924: 3e2b43a1
onnx::Slice_929: 3dae3342
onnx::Slice_930: 3c0031e5
onnx::Mul_935: 3bfd9ed4
(Unnamed Layer* 538) [Shuffle]_output: 3c810204
onnx::Sub_937: 3c7d9ed4
(Unnamed Layer* 541) [Shuffle]_output: 3b810204
onnx::Add_939: 3c3d1dd2
(Unnamed Layer* 543) [Constant]_output: 3ecd9b36
onnx::Mul_941: 3ed15545
(Unnamed Layer* 546) [Shuffle]_output: 3e010204
onnx::Concat_943: 40d15545
onnx::Mul_948: 3c0031e5
(Unnamed Layer* 550) [Shuffle]_output: 3c810204
onnx::Pow_950: 3c8031e5
(Unnamed Layer* 553) [Shuffle]_output: 3c810204
onnx::Mul_953: 3cfec62a
(Unnamed Layer* 555) [Constant]_output: 3fb56ad6
onnx::Concat_958: 409359d6
onnx::Mul_963: 3d2f7b6a
(Unnamed Layer* 559) [Shuffle]_output: 3c810204
onnx::Sub_965: 3daf7b6a
(Unnamed Layer* 562) [Shuffle]_output: 3b810204
onnx::Add_967: 3daf0b89
(Unnamed Layer* 564) [Constant]_output: 3ecd9b36
onnx::Mul_969: 3edb1c70
(Unnamed Layer* 567) [Shuffle]_output: 3e010204
onnx::Unsqueeze_971: 40db1c70
onnx::Mul_976: 3dae3342
(Unnamed Layer* 571) [Shuffle]_output: 3c810204
onnx::Sub_978: 3e2e3342
(Unnamed Layer* 574) [Shuffle]_output: 3b810204
onnx::Add_980: 3e2a2b31
(Unnamed Layer* 576) [Constant]_output: 3ecd9b36
onnx::Mul_982: 3ee82ac1
(Unnamed Layer* 579) [Shuffle]_output: 3e010204
onnx::Unsqueeze_984: 40e82ac1
onnx::Sigmoid_989: 3d85198f
onnx::Unsqueeze_990: 3c00e05c
onnx::Concat_991: 40db1c70
onnx::Concat_992: 40e82ac1
onnx::Concat_993: 3c00e05c
onnx::Reshape_994: 40e82ac1
onnx::Concat_1003: 40e82ac1
onnx::Concat_1008: 3bfde967
onnx::Reshape_1009: 40e82ac1
onnx::Concat_1016: 40e82ac1
onnx::Concat_1017: 3df7b4e6
onnx::Concat_1018: 3e04a787
onnx::Reshape_1019: 3e04a787
onnx::Slice_1032: 3e04a787
onnx::Sigmoid_1037: 3e04a787
onnx::Slice_1042: 3d8cb9e6
onnx::Slice_1043: 3bfef742
onnx::Mul_1048: 3bfef742
(Unnamed Layer* 601) [Shuffle]_output: 3c810204
onnx::Sub_1050: 3c7ef742
(Unnamed Layer* 604) [Shuffle]_output: 3b810204
onnx::Add_1052: 3c3e763f
(Unnamed Layer* 606) [Constant]_output: 3e499326
onnx::Mul_1054: 3e4e8cf7
(Unnamed Layer* 609) [Shuffle]_output: 3e810204
onnx::Concat_1056: 40ce8cf7
onnx::Mul_1061: 3becb898
(Unnamed Layer* 613) [Shuffle]_output: 3c810204
onnx::Pow_1063: 3c6cb898
(Unnamed Layer* 616) [Shuffle]_output: 3c810204
onnx::Mul_1066: 3cd92f14
(Unnamed Layer* 618) [Constant]_output: 40889122
onnx::Concat_1071: 40d05d8f
onnx::Mul_1076: 3cdd08de
(Unnamed Layer* 622) [Shuffle]_output: 3c810204
onnx::Sub_1078: 3d5d08de
(Unnamed Layer* 625) [Shuffle]_output: 3b810204
onnx::Add_1080: 3d4ce89d
(Unnamed Layer* 627) [Constant]_output: 3e499326
onnx::Mul_1082: 3e607717
(Unnamed Layer* 630) [Shuffle]_output: 3e810204
onnx::Unsqueeze_1084: 40e07717
onnx::Mul_1089: 3d7a0bd0
(Unnamed Layer* 634) [Shuffle]_output: 3c810204
onnx::Sub_1091: 3dfa0bd0
(Unnamed Layer* 637) [Shuffle]_output: 3b810204
onnx::Add_1093: 3df1fbaf
(Unnamed Layer* 639) [Constant]_output: 3e499326
onnx::Mul_1095: 3e713921
(Unnamed Layer* 642) [Shuffle]_output: 3e810204
onnx::Unsqueeze_1097: 40f13921
onnx::Sigmoid_1102: 3d8cb9e6
onnx::Unsqueeze_1103: 3c00acd2
onnx::Concat_1104: 40e07717
onnx::Concat_1105: 40f13921
onnx::Concat_1106: 3c00acd2
onnx::Reshape_1107: 40f13921
onnx::Concat_1116: 40f13921
onnx::Concat_1121: 3bfde149
onnx::Reshape_1122: 40f13921
onnx::Concat_1129: 40f13921
onnx::Concat_1130: 3dedaa6d
onnx::Concat_1131: 3de81a3c
onnx::Reshape_1132: 3dedaa6d
onnx::Slice_1145: 3dedaa6d
onnx::Sigmoid_1150: 3dedaa6d
onnx::Slice_1155: 3d8823cd
onnx::Slice_1156: 3bfff4c4
onnx::Mul_1161: 3bfff4c4
(Unnamed Layer* 664) [Shuffle]_output: 3c810204
onnx::Sub_1163: 3c7ff4c4
(Unnamed Layer* 667) [Shuffle]_output: 3b810204
onnx::Add_1165: 3c3f73c2
(Unnamed Layer* 669) [Constant]_output: 3dc18306
onnx::Mul_1167: 3dc6afa3
(Unnamed Layer* 672) [Shuffle]_output: 3f010204
onnx::Concat_1169: 40c6afa3
onnx::Mul_1174: 3bbfc2c6
(Unnamed Layer* 676) [Shuffle]_output: 3c810204
onnx::Pow_1176: 3c3fc2c6
(Unnamed Layer* 679) [Shuffle]_output: 3c810204
onnx::Mul_1179: 3c8e84ef
(Unnamed Layer* 681) [Constant]_output: 40e91224
onnx::Concat_1184: 40d7781d
onnx::Mul_1189: 3c84c512
(Unnamed Layer* 685) [Shuffle]_output: 3c810204
onnx::Sub_1191: 3d04c512
(Unnamed Layer* 688) [Shuffle]_output: 3b810204
onnx::Add_1193: 3ce949a3
(Unnamed Layer* 690) [Constant]_output: 3dc18306
onnx::Mul_1195: 3ddb7d24
(Unnamed Layer* 693) [Shuffle]_output: 3f010204
onnx::Unsqueeze_1197: 40db7d24
onnx::Mul_1202: 3cef112c
(Unnamed Layer* 697) [Shuffle]_output: 3c810204
onnx::Sub_1204: 3d6f112c
(Unnamed Layer* 700) [Shuffle]_output: 3b810204
onnx::Add_1206: 3d5ef0ec
(Unnamed Layer* 702) [Constant]_output: 3dc18306
onnx::Mul_1208: 3de8a0c4
(Unnamed Layer* 705) [Shuffle]_output: 3f010204
onnx::Unsqueeze_1210: 40e8a0c4
onnx::Sigmoid_1215: 3d8823cd
onnx::Unsqueeze_1216: 3c006a0f
onnx::Concat_1217: 40db7d24
onnx::Concat_1218: 40e8a0c4
onnx::Concat_1219: 3c006a0f
onnx::Reshape_1220: 40e8a0c4
onnx::Concat_1229: 40e8a0c4
onnx::Concat_1234: 3bfdd4f9
onnx::Reshape_1235: 40e8a0c4
onnx::Concat_1242: 40e8a0c4
output: 40f14285
