TRT-8401-MinMaxCalibration
input: 3c010204
onnx::Reshape_307: 3c010204
input.1: 3c010204
onnx::Sigmoid_317: 3eeb8bfb
onnx::Mul_318: 3c010204
input.3: 3eeb8bfb
onnx::Sigmoid_320: 3ee68122
onnx::Mul_321: 3c010204
input.7: 3eb7fb21
onnx::Sigmoid_323: 3eb182fc
onnx::Mul_324: 3c010204
input.11: 3e176d99
onnx::Sigmoid_326: 3e64815a
onnx::Mul_327: 3c0101fd
input.15: 3de312de
onnx::Sigmoid_329: 3e0e8b7a
onnx::Mul_330: 3c010204
onnx::Add_331: 3e0e8b7a
input.19: 3e24784f
onnx::Sigmoid_333: 3e299e89
onnx::Mul_334: 3c010202
input.23: 3df831f4
onnx::Sigmoid_336: 3e23464f
onnx::Mul_337: 3c0101f9
onnx::Add_338: 3dd9ee8b
input.27: 3e4cdf32
onnx::Sigmoid_340: 3de456eb
onnx::Mul_341: 3c01016d
input.31: 3db03f83
onnx::Sigmoid_343: 3e148632
onnx::Mul_344: 3c010204
onnx::Add_345: 3e148632
onnx::Concat_346: 3e865ffe
onnx::Sigmoid_347: 3ee4be50
onnx::Mul_348: 3c010204
onnx::Concat_349: 3e9b637e
input.35: 3e9b637e
onnx::Sigmoid_351: 3e121109
onnx::Mul_352: 3c0101ff
input.39: 3de6f0a0
onnx::Sigmoid_354: 3dcd6f33
onnx::Mul_355: 3c0101eb
input.43: 3dcd6f0c
onnx::Sigmoid_357: 3d910753
onnx::Mul_358: 3c00f6c6
input.47: 3d80b88f
onnx::Sigmoid_360: 3db86720
onnx::Mul_361: 3c01016d
input.51: 3db02532
onnx::Sigmoid_363: 3d83666e
onnx::Mul_364: 3c00e109
onnx::Add_365: 3d5e93c2
input.55: 3d7ef77c
onnx::Sigmoid_367: 3db1b91c
onnx::Mul_368: 3c010179
input.59: 3db1b85e
onnx::Sigmoid_370: 3d988a33
onnx::Mul_371: 3c00deb1
onnx::Add_372: 3d5c5991
input.63: 3d8e20aa
onnx::Sigmoid_374: 3da46c07
onnx::Mul_375: 3c0100c7
input.67: 3da46a73
onnx::Sigmoid_377: 3d88d0bd
onnx::Mul_378: 3c00e4a7
onnx::Add_379: 3d6259da
input.71: 3da1a93b
onnx::Sigmoid_381: 3d98a517
onnx::Mul_382: 3c00fccf
input.75: 3d8d099a
onnx::Sigmoid_384: 3d8968c2
onnx::Mul_385: 3c00fa14
onnx::Add_386: 3d8666c6
input.79: 3dc80243
onnx::Sigmoid_388: 3d95cebf
onnx::Mul_389: 3c00f015
input.83: 3d72563c
onnx::Sigmoid_391: 3db57204
onnx::Mul_392: 3c010195
onnx::Add_393: 3db57168
input.87: 3deadc38
onnx::Sigmoid_395: 3d9e677d
onnx::Mul_396: 3c01003c
input.91: 3d9e654e
onnx::Sigmoid_398: 3dc3f34f
onnx::Mul_399: 3c0101d8
onnx::Add_400: 3dc3f30b
input.95: 3e2c96ec
onnx::Sigmoid_402: 3dce3b8f
onnx::Mul_403: 3c0101ed
input.99: 3dce3b6a
onnx::Sigmoid_405: 3e0127a0
onnx::Mul_406: 3c010197
onnx::Add_407: 3db5994a
input.103: 3e6d5f03
onnx::Sigmoid_409: 3e29a5bd
onnx::Mul_410: 3c010204
input.107: 3e29a5bd
onnx::Sigmoid_412: 3dec4e72
onnx::Mul_413: 3c0101d3
onnx::Add_414: 3dc26a1b
input.111: 3e6bf69d
onnx::Sigmoid_416: 3d952f07
onnx::Mul_417: 3c00fed5
input.115: 3d952b59
onnx::Sigmoid_419: 3dee8bec
onnx::Mul_420: 3c010201
onnx::Add_421: 3dee8be6
onnx::Concat_422: 3e69f0b6
onnx::Sigmoid_423: 3e464a46
onnx::Mul_424: 3c010204
onnx::Concat_425: 3e464a46
input.119: 3e69f0b6
onnx::Sigmoid_427: 3db284d2
onnx::Mul_428: 3c010180
input.123: 3db2841b
onnx::Sigmoid_430: 3dfbcf03
onnx::Mul_431: 3c010203
input.127: 3dfbcf00
onnx::Sigmoid_433: 3db3184b
onnx::Mul_434: 3c010184
input.131: 3db31799
onnx::Sigmoid_436: 3e1c8d99
onnx::Mul_437: 3c010204
input.135: 3e1c8d99
onnx::Sigmoid_439: 3d98bb9c
onnx::Mul_440: 3c0059f5
onnx::Add_441: 3d2948e7
input.139: 3dafc683
onnx::Sigmoid_443: 3db5e788
onnx::Mul_444: 3c010196
input.143: 3db58656
onnx::Sigmoid_446: 3da3fefd
onnx::Mul_447: 3c00dcfe
onnx::Add_448: 3d5ad2a7
input.147: 3dadee26
onnx::Sigmoid_450: 3de95cf7
onnx::Mul_451: 3c010200
input.151: 3de95cf0
onnx::Sigmoid_453: 3d61c1a7
onnx::Mul_454: 3c00e3eb
onnx::Add_455: 3d618cfc
input.155: 3dbbfd2e
onnx::Sigmoid_457: 3de061d8
onnx::Mul_458: 3c0101fc
input.159: 3de061cb
onnx::Sigmoid_460: 3d9466a2
onnx::Mul_461: 3c00fead
onnx::Add_462: 3d9462cb
input.163: 3deafbb8
onnx::Sigmoid_464: 3dbf85a5
onnx::Mul_465: 3c0101ca
input.167: 3dbf854f
onnx::Sigmoid_467: 3d901499
onnx::Mul_468: 3c00fdaa
onnx::Add_469: 3d900fbc
input.171: 3e10b4e8
onnx::Sigmoid_471: 3da18b38
onnx::Mul_472: 3c01008b
input.175: 3da18961
onnx::Sigmoid_474: 3d9edd6b
onnx::Mul_475: 3c00ff3e
onnx::Add_476: 3d975fd9
input.179: 3e1c007d
onnx::Sigmoid_478: 3dae6c13
onnx::Mul_479: 3c01015c
input.183: 3dae6b2f
onnx::Sigmoid_481: 3da17e20
onnx::Mul_482: 3c01008a
onnx::Add_483: 3da17c48
input.187: 3e1f0f4f
onnx::Sigmoid_485: 3d89c869
onnx::Mul_486: 3c00fb9a
input.191: 3d89c18f
onnx::Sigmoid_488: 3e0fa779
onnx::Mul_489: 3c010204
onnx::Add_490: 3e0fa779
input.195: 3e3a953f
onnx::Sigmoid_492: 3d79dbd0
onnx::Mul_493: 3c00f3c2
input.199: 3d79c031
onnx::Sigmoid_495: 3e433aa7
onnx::Mul_496: 3c010204
onnx::Add_497: 3e433aa7
onnx::Concat_498: 3e4290ad
onnx::Sigmoid_499: 3e25bed0
onnx::Mul_500: 3c010204
onnx::Concat_501: 3e25bed0
input.203: 3e4290ad
onnx::Sigmoid_503: 3dc531e4
onnx::Mul_504: 3c0101db
input.207: 3dc531a4
onnx::Sigmoid_506: 3dcdbb6d
onnx::Mul_507: 3c0101ec
input.211: 3dcdbb47
onnx::Sigmoid_509: 3db30dde
onnx::Mul_510: 3c010184
input.215: 3db30d2c
onnx::Sigmoid_512: 3e374086
onnx::Mul_513: 3c010204
input.219: 3e374086
onnx::Sigmoid_515: 3dfb38e2
onnx::Mul_516: 3c00da63
onnx::Add_517: 3d589c82
input.223: 3db205f3
onnx::Sigmoid_519: 3dda01a2
onnx::Mul_520: 3c0101f9
input.227: 3dda018f
onnx::Sigmoid_522: 3ddf3ee5
onnx::Mul_523: 3c00ff7f
onnx::Add_524: 3d98dc2e
input.231: 3db28c04
onnx::Sigmoid_526: 3deee424
onnx::Mul_527: 3c010201
input.235: 3deee41e
onnx::Sigmoid_529: 3dc478d1
onnx::Mul_530: 3c0101d9
onnx::Add_531: 3dc4788f
onnx::Concat_532: 3df451af
onnx::Sigmoid_533: 3dee0f44
onnx::Mul_534: 3c010201
onnx::Concat_535: 3dee0f3d
input.239: 3df451af
onnx::Sigmoid_537: 3df8b480
onnx::Mul_538: 3c010202
input.243: 3df8b47c
onnx::Sigmoid_540: 3dcd5c11
onnx::Mul_541: 3c0101eb
input.247: 3dcd5bea
onnx::Sigmoid_543: 3d9c0768
onnx::Mul_544: 3c00fff5
onnx::MaxPool_545: 3d9c04ea
onnx::Concat_546: 3d9c04ea
onnx::MaxPool_547: 3d9c04ea
onnx::Concat_548: 3d9c04ea
onnx::MaxPool_549: 3d9c04ea
onnx::MaxPool_550: 3d9c04ea
onnx::Concat_551: 3d9c04ea
input.251: 3d9c04ea
onnx::Sigmoid_553: 3d817c4f
onnx::Mul_554: 3c00a22c
input.255: 3d3bc9bc
onnx::Sigmoid_556: 3d58c7f2
onnx::Mul_557: 3c00da47
input.259: 3d58852a
onnx::Sigmoid_559: 3d3538d2
onnx::Mul_560: 3c008a9d
input.263: 3d349117
onnx::Sigmoid_562: 3d57eea3
onnx::Mul_563: 3c00ca05
input.267: 3d4d5b66
onnx::Sigmoid_565: 3d6bafb9
onnx::Mul_566: 3c00ebe3
input.271: 3d6b874d
onnx::Sigmoid_568: 3d749253
onnx::Mul_569: 3c00f136
input.275: 3d747278
onnx::Sigmoid_571: 3d43f519
onnx::Mul_572: 3c00b64d
input.279: 3d438216
onnx::Sigmoid_574: 3d3edfc9
onnx::Mul_575: 3c00a96c
onnx::Concat_576: 3d3e5cb4
onnx::Sigmoid_577: 3d736eb5
onnx::Mul_578: 3c00dd94
onnx::Concat_579: 3d5b57c3
input.283: 3d5b57c3
onnx::Sigmoid_581: 3d78b269
onnx::Mul_582: 3c00f33b
input.287: 3d7895e9
onnx::Sigmoid_584: 3d79646f
onnx::Mul_585: 3c00c7bd
input.291: 3d4c0ec5
onnx::Concat_591: 3d4c0ec5
input.295: 3df8b47c
onnx::Sigmoid_593: 3d941ef2
onnx::Mul_594: 3c00e10f
input.299: 3d5e992c
onnx::Sigmoid_596: 3d8cd0b4
onnx::Mul_597: 3c00fcba
input.303: 3d8ccaef
onnx::Sigmoid_599: 3d6a96af
onnx::Mul_600: 3c00de22
input.307: 3d5bd748
onnx::Sigmoid_602: 3d66e523
onnx::Mul_603: 3c00e85a
input.311: 3d66b733
onnx::Sigmoid_605: 3d907f2f
onnx::Mul_606: 3c00fdc4
input.315: 3d907a6c
onnx::Sigmoid_608: 3db65353
onnx::Mul_609: 3c01019b
input.319: 3db652be
onnx::Sigmoid_611: 3d8fce91
onnx::Mul_612: 3c00fd98
onnx::Concat_613: 3d8fc9a3
onnx::Sigmoid_614: 3d8b93a8
onnx::Mul_615: 3c00e924
onnx::Concat_616: 3d67bb01
input.323: 3d8fc9a3
onnx::Sigmoid_618: 3d960ad5
onnx::Mul_619: 3c00fc58
input.327: 3d8baf7d
onnx::Sigmoid_621: 3d72e86d
onnx::Mul_622: 3c00b1ee
input.331: 3d41abca
onnx::Concat_628: 3d41abca
input.335: 3dc531a4
onnx::Sigmoid_630: 3d7d08b9
onnx::Mul_631: 3c00e199
input.339: 3d5f2285
onnx::Sigmoid_633: 3db18a5f
onnx::Mul_634: 3c00ffa6
input.343: 3d99d8e8
onnx::Sigmoid_636: 3d74014b
onnx::Mul_637: 3c00eeab
input.347: 3d6fe042
onnx::Sigmoid_639: 3d972f0a
onnx::Mul_640: 3c00f74a
input.351: 3d817533
onnx::Sigmoid_642: 3da0f883
onnx::Mul_643: 3c00fe5c
input.355: 3d92e399
onnx::Sigmoid_645: 3da9ef63
onnx::Mul_646: 3c00fcf2
input.359: 3d8d78f3
onnx::Sigmoid_648: 3d85ae6a
onnx::Mul_649: 3c00f723
onnx::Concat_650: 3d8136f3
onnx::Sigmoid_651: 3daf2e3c
onnx::Mul_652: 3c00f7f0
onnx::Concat_653: 3d8283a6
input.363: 3d8283a6
onnx::Sigmoid_655: 3dc464b0
onnx::Mul_656: 3c00f68f
input.367: 3d8069a7
onnx::Sigmoid_658: 3d97ac1e
onnx::Mul_659: 3c00f748
input.371: 3d817178
onnx::Concat_665: 3d817178
input.375: 3db2841b
onnx::Sigmoid_667: 3d748cc3
onnx::Mul_668: 3bfda9a3
input.379: 3d00e5f9
onnx::Sigmoid_670: 3d781b16
onnx::Mul_671: 3c00dec1
input.383: 3d5c67b0
onnx::Sigmoid_673: 3d5dc957
onnx::Mul_674: 3c00c221
input.387: 3d490ebd
onnx::Sigmoid_676: 3d99dcd1
onnx::Mul_677: 3c00f825
input.391: 3d82db88
onnx::Sigmoid_679: 3da29c47
onnx::Mul_680: 3c0100a2
input.395: 3da29a89
onnx::Sigmoid_682: 3dcb8d7e
onnx::Mul_683: 3c00ff0f
input.399: 3d9656e4
onnx::Sigmoid_685: 3da5aa45
onnx::Mul_686: 3c01007e
onnx::Concat_687: 3da11c3a
onnx::Sigmoid_688: 3dd18ac6
onnx::Mul_689: 3c00ff0a
onnx::Concat_690: 3d963f03
input.403: 3da11c3a
onnx::Sigmoid_692: 3e218936
onnx::Mul_693: 3c010204
input.407: 3e098db4
onnx::Sigmoid_695: 3dd506ea
onnx::Mul_696: 3c00ff2f
onnx::Concat_697: 3d970985
input.411: 3d970985
onnx::Sigmoid_699: 3d923e16
onnx::Mul_700: 3c00fe35
input.415: 3d9239c6
onnx::Sigmoid_702: 3d911d15
onnx::Mul_703: 3c00fde7
input.419: 3d911875
onnx::Sigmoid_705: 3d8bb49d
onnx::Mul_706: 3c00fc58
input.423: 3d8bae79
onnx::Sigmoid_708: 3d8ea8f7
onnx::Mul_709: 3c00fd4b
input.427: 3d8ea3bd
onnx::Sigmoid_711: 3db42fb8
onnx::Mul_712: 3c010067
input.431: 3da00d1a
onnx::Sigmoid_714: 3de2adcb
onnx::Mul_715: 3c0101b0
input.435: 3db9d8aa
onnx::Sigmoid_717: 3dd0d35d
onnx::Mul_718: 3c00ff92
onnx::Concat_719: 3d995703
onnx::Sigmoid_720: 3d81a3fa
onnx::Mul_721: 3c00e147
onnx::Concat_722: 3d5ed0ba
input.439: 3d995703
onnx::Sigmoid_724: 3dd3891c
onnx::Mul_725: 3c0101d4
input.443: 3dc2a77c
onnx::Sigmoid_727: 3db262dc
onnx::Mul_728: 3c01017f
onnx::Concat_729: 3db26223
input.447: 3db26223
onnx::Sigmoid_731: 3da9eb19
onnx::Mul_732: 3c00fb25
input.451: 3d88acd9
onnx::Sigmoid_734: 3d9e15c4
onnx::Mul_735: 3c010034
input.455: 3d9e138b
onnx::Sigmoid_737: 3d92a308
onnx::Mul_738: 3c00fe4d
input.459: 3d929ecf
onnx::Sigmoid_740: 3dbf98ea
onnx::Mul_741: 3c0100b1
input.463: 3da35a96
onnx::Sigmoid_743: 3da22636
onnx::Mul_744: 3c010098
input.467: 3da2246d
onnx::Sigmoid_746: 3df0d33b
onnx::Mul_747: 3c00ffe3
input.471: 3d9b7fb9
onnx::Sigmoid_749: 3da2a200
onnx::Mul_750: 3c00fb21
onnx::Concat_751: 3d88a599
onnx::Sigmoid_752: 3da96207
onnx::Mul_753: 3c00f650
onnx::Concat_754: 3d8012a3
input.475: 3d88a599
onnx::Sigmoid_756: 3db0429a
onnx::Mul_757: 3c00fbc9
input.479: 3d8a338a
onnx::Sigmoid_759: 3da75867
onnx::Mul_760: 3c0100fc
onnx::Concat_761: 3da75710
input.483: 3da75710
onnx::Sigmoid_763: 3d7b4269
onnx::Mul_764: 3c00f45c
input.487: 3d7b27d0
onnx::Sigmoid_766: 3d5875c1
onnx::Mul_767: 3c00d9e1
input.491: 3d583269
onnx::Sigmoid_769: 3d79c9f8
onnx::Mul_770: 3c00e289
input.495: 3d6016cc
onnx::Sigmoid_772: 3d6fe88d
onnx::Mul_773: 3c00ee9b
input.499: 3d6fc475
onnx::Sigmoid_775: 3d8492bc
onnx::Mul_776: 3c00f91a
input.503: 3d848993
onnx::Sigmoid_778: 3da96485
onnx::Mul_779: 3c00e451
input.507: 3d61fa93
onnx::Sigmoid_781: 3d801490
onnx::Mul_782: 3c00cb81
onnx::Concat_783: 3d4e3b2c
onnx::Sigmoid_784: 3d82a60b
onnx::Mul_785: 3c00f7ff
onnx::Concat_786: 3d829be6
input.511: 3d829be6
onnx::Sigmoid_788: 3d9d706d
onnx::Mul_789: 3c00eafc
input.515: 3d6a3ab0
onnx::Concat_791: 3e41ce41
onnx::Concat_792: 3e3c2af1
onnx::Reshape_793: 3e41ce41
onnx::Slice_806: 3e41ce41
onnx::Sigmoid_811: 3e41ce41
onnx::Slice_816: 3dc1bc7d
onnx::Slice_817: 3c0076a6
onnx::Mul_822: 3bfbe968
(Unnamed Layer* 475) [Shuffle]_output: 3c810204
onnx::Sub_824: 3c7be968
(Unnamed Layer* 478) [Shuffle]_output: 3b810204
onnx::Add_826: 3c3b6866
(Unnamed Layer* 480) [Constant]_output: 3f4f9f3e
onnx::Mul_828: 3f522605
(Unnamed Layer* 483) [Shuffle]_output: 3d810204
onnx::Concat_830: 40d22605
onnx::Mul_835: 3c0076a6
(Unnamed Layer* 486) [Shuffle]_output: 3c810204
onnx::Pow_837: 3c8076a6
(Unnamed Layer* 488) [Shuffle]_output: 3c810204
onnx::Mul_840: 3cffd7bc
(Unnamed Layer* 490) [Constant]_output: 3f3d7af6
onnx::Concat_845: 40395f20
onnx::Mul_850: 3d1cbd52
(Unnamed Layer* 493) [Shuffle]_output: 3c810204
onnx::Sub_852: 3d9cbd52
(Unnamed Layer* 495) [Shuffle]_output: 3b810204
onnx::Add_854: 3d94ad31
(Unnamed Layer* 497) [Constant]_output: 3f4f9f3e
onnx::Mul_856: 3f53b95f
(Unnamed Layer* 499) [Shuffle]_output: 3d810204
onnx::Unsqueeze_858: 40d3b95f
onnx::Mul_863: 3dc1bc7d
(Unnamed Layer* 502) [Shuffle]_output: 3c810204
onnx::Sub_865: 3e41bc7d
(Unnamed Layer* 504) [Shuffle]_output: 3b810204
onnx::Add_867: 3e3db46d
(Unnamed Layer* 506) [Constant]_output: 3f4f9f3e
onnx::Mul_869: 3f5f2788
(Unnamed Layer* 508) [Shuffle]_output: 3d810204
onnx::Unsqueeze_871: 40df2788
onnx::Sigmoid_876: 3d800503
onnx::Unsqueeze_877: 3c00f2db
onnx::Concat_878: 40d3b95f
onnx::Concat_879: 40df2788
onnx::Concat_880: 3c00f2db
onnx::Reshape_881: 40df2788
onnx::Concat_890: 40df2788
onnx::Concat_895: 3bfd956c
onnx::Reshape_896: 40df2788
onnx::Concat_903: 40df2788
onnx::Concat_904: 3e1e17cf
onnx::Concat_905: 3e2aa322
onnx::Reshape_906: 3e2aa322
onnx::Slice_919: 3e2aa322
onnx::Sigmoid_924: 3e2aa322
onnx::Slice_929: 3da2c8db
onnx::Slice_930: 3c00355f
onnx::Mul_935: 3bfe3b36
(Unnamed Layer* 529) [Shuffle]_output: 3c810204
onnx::Sub_937: 3c7e3b36
(Unnamed Layer* 531) [Shuffle]_output: 3b810204
onnx::Add_939: 3c3dba34
(Unnamed Layer* 533) [Constant]_output: 3ecd9b36
onnx::Mul_941: 3ed13d59
(Unnamed Layer* 536) [Shuffle]_output: 3e010204
onnx::Concat_943: 40d13d59
onnx::Mul_948: 3c00355f
(Unnamed Layer* 539) [Shuffle]_output: 3c810204
onnx::Pow_950: 3c80355f
(Unnamed Layer* 541) [Shuffle]_output: 3c810204
onnx::Mul_953: 3cfed3fc
(Unnamed Layer* 543) [Constant]_output: 3fb56ad6
onnx::Concat_958: 40953731
onnx::Mul_963: 3d2c5c58
(Unnamed Layer* 546) [Shuffle]_output: 3c810204
onnx::Sub_965: 3dac5c58
(Unnamed Layer* 548) [Shuffle]_output: 3b810204
onnx::Add_967: 3da44c37
(Unnamed Layer* 550) [Constant]_output: 3ecd9b36
onnx::Mul_969: 3ed98a61
(Unnamed Layer* 552) [Shuffle]_output: 3e010204
onnx::Unsqueeze_971: 40d98a61
onnx::Mul_976: 3da2c8db
(Unnamed Layer* 555) [Shuffle]_output: 3c810204
onnx::Sub_978: 3e22c8db
(Unnamed Layer* 557) [Shuffle]_output: 3b810204
onnx::Add_980: 3e1ec0cb
(Unnamed Layer* 559) [Constant]_output: 3ecd9b36
onnx::Mul_982: 3ee72ea1
(Unnamed Layer* 561) [Shuffle]_output: 3e010204
onnx::Unsqueeze_984: 40e72ea1
onnx::Sigmoid_989: 3d8db04c
onnx::Unsqueeze_990: 3c00d456
onnx::Concat_991: 40d98a61
onnx::Concat_992: 40e72ea1
onnx::Concat_993: 3c00d456
onnx::Reshape_994: 40e72ea1
onnx::Concat_1003: 40e72ea1
onnx::Concat_1008: 3bfde967
onnx::Reshape_1009: 40e72ea1
onnx::Concat_1016: 40e72ea1
onnx::Concat_1017: 3df60234
onnx::Concat_1018: 3e012615
onnx::Reshape_1019: 3e012615
onnx::Slice_1032: 3e012615
onnx::Sigmoid_1037: 3e012615
onnx::Slice_1042: 3d862bd5
onnx::Slice_1043: 3bff1005
onnx::Mul_1048: 3bff1005
(Unnamed Layer* 582) [Shuffle]_output: 3c810204
onnx::Sub_1050: 3c7f1005
(Unnamed Layer* 584) [Shuffle]_output: 3b810204
onnx::Add_1052: 3c3e8f03
(Unnamed Layer* 586) [Constant]_output: 3e499326
onnx::Mul_1054: 3e4e63c9
(Unnamed Layer* 589) [Shuffle]_output: 3e810204
onnx::Concat_1056: 40ce63c9
onnx::Mul_1061: 3bf9ad81
(Unnamed Layer* 592) [Shuffle]_output: 3c810204
onnx::Pow_1063: 3c79ad81
(Unnamed Layer* 594) [Shuffle]_output: 3c810204
onnx::Mul_1066: 3cf19bf5
(Unnamed Layer* 596) [Constant]_output: 40889122
onnx::Concat_1071: 40d390ab
onnx::Mul_1076: 3d089a6b
(Unnamed Layer* 599) [Shuffle]_output: 3c810204
onnx::Sub_1078: 3d889a6b
(Unnamed Layer* 601) [Shuffle]_output: 3b810204
onnx::Add_1080: 3d808a4b
(Unnamed Layer* 603) [Constant]_output: 3e499326
onnx::Mul_1082: 3e5d7e49
(Unnamed Layer* 605) [Shuffle]_output: 3e810204
onnx::Unsqueeze_1084: 40dd7e49
onnx::Mul_1089: 3d73849e
(Unnamed Layer* 608) [Shuffle]_output: 3c810204
onnx::Sub_1091: 3df3849e
(Unnamed Layer* 610) [Shuffle]_output: 3b810204
onnx::Add_1093: 3deb747e
(Unnamed Layer* 612) [Constant]_output: 3e499326
onnx::Mul_1095: 3e78256c
(Unnamed Layer* 614) [Shuffle]_output: 3e810204
onnx::Unsqueeze_1097: 40f8256c
onnx::Sigmoid_1102: 3d862bd5
onnx::Unsqueeze_1103: 3c00a610
onnx::Concat_1104: 40dd7e49
onnx::Concat_1105: 40f8256c
onnx::Concat_1106: 3c00a610
onnx::Reshape_1107: 40f8256c
onnx::Concat_1116: 40f8256c
onnx::Concat_1121: 3bfde149
onnx::Reshape_1122: 40f8256c
onnx::Concat_1129: 40f8256c
onnx::Concat_1130: 3ddd8092
onnx::Concat_1131: 3de9f8cc
onnx::Reshape_1132: 3de9f8cc
onnx::Slice_1145: 3de9f8cc
onnx::Sigmoid_1150: 3de9f8cc
onnx::Slice_1155: 3d73a7af
onnx::Slice_1156: 3bffbcad
onnx::Mul_1161: 3bffbcad
(Unnamed Layer* 635) [Shuffle]_output: 3c810204
onnx::Sub_1163: 3c7fbcad
(Unnamed Layer* 637) [Shuffle]_output: 3b810204
onnx::Add_1165: 3c3f3bab
(Unnamed Layer* 639) [Constant]_output: 3dc18306
onnx::Mul_1167: 3dc6f784
(Unnamed Layer* 642) [Shuffle]_output: 3f010204
onnx::Concat_1169: 40c6f784
onnx::Mul_1174: 3bc04820
(Unnamed Layer* 645) [Shuffle]_output: 3c810204
onnx::Pow_1176: 3c404820
(Unnamed Layer* 647) [Shuffle]_output: 3c810204
onnx::Mul_1179: 3c8f4b6c
(Unnamed Layer* 649) [Constant]_output: 40e91224
onnx::Concat_1184: 40dd79c8
onnx::Mul_1189: 3c958270
(Unnamed Layer* 652) [Shuffle]_output: 3c810204
onnx::Sub_1191: 3d158270
(Unnamed Layer* 654) [Shuffle]_output: 3b810204
onnx::Add_1193: 3d05622f
(Unnamed Layer* 656) [Constant]_output: 3dc18306
onnx::Mul_1195: 3ddcce09
(Unnamed Layer* 658) [Shuffle]_output: 3f010204
onnx::Unsqueeze_1197: 40dcce09
onnx::Mul_1202: 3cece368
(Unnamed Layer* 661) [Shuffle]_output: 3c810204
onnx::Sub_1204: 3d6ce368
(Unnamed Layer* 663) [Shuffle]_output: 3b810204
onnx::Add_1206: 3d5cc327
(Unnamed Layer* 665) [Constant]_output: 3dc18306
onnx::Mul_1208: 3de271d3
(Unnamed Layer* 667) [Shuffle]_output: 3f010204
onnx::Unsqueeze_1210: 40e271d3
onnx::Sigmoid_1215: 3d73a7af
onnx::Unsqueeze_1216: 3c0078c2
onnx::Concat_1217: 40dcce09
onnx::Concat_1218: 40e271d3
onnx::Concat_1219: 3c0078c2
onnx::Reshape_1220: 40e271d3
onnx::Concat_1229: 40e271d3
onnx::Concat_1234: 3bfdd4f8
onnx::Reshape_1235: 40e271d3
onnx::Concat_1242: 40e271d3
output: 40f8256c
